#include "sine_model_data.h"

ai_handle ai_sine_model_data_weights_get(void)
{

  AI_ALIGNED(4)
  static const ai_u8 s_sine_model_weights[ 1284 ] = {
    0x92, 0xc1, 0xf7, 0x3e, 0xa1, 0x14, 0xf6, 0x3d, 0x42, 0x67,
    0xa2, 0x3d, 0x6e, 0x85, 0x04, 0xbe, 0xea, 0xc5, 0x52, 0x3d,
    0xfd, 0x56, 0x09, 0xbf, 0x88, 0x1c, 0xc4, 0xbe, 0x2a, 0xfd,
    0x74, 0x3e, 0x00, 0x85, 0x1d, 0xbc, 0xae, 0x51, 0x3b, 0xbe,
    0x5f, 0x6a, 0x3d, 0xbe, 0x8e, 0x51, 0xa9, 0xbe, 0x8b, 0x9a,
    0xb3, 0x3e, 0xd2, 0x3e, 0xfc, 0x3e, 0x6e, 0x30, 0xe7, 0x3d,
    0xec, 0x65, 0x0f, 0xbe, 0x02, 0x5d, 0x9b, 0x3a, 0x52, 0xdb,
    0x94, 0x3e, 0x24, 0x04, 0x91, 0xbe, 0x00, 0x00, 0x00, 0x00,
    0x9c, 0x12, 0xa2, 0x3e, 0x00, 0x00, 0x00, 0x00, 0x00, 0x00,
    0x00, 0x00, 0xb1, 0xf1, 0x22, 0x3e, 0x00, 0x00, 0x00, 0x00,
    0x00, 0x00, 0x00, 0x00, 0xad, 0xfb, 0x64, 0x3f, 0x00, 0x00,
    0x00, 0x00, 0xff, 0x8a, 0x39, 0x3e, 0xee, 0x51, 0x86, 0xbe,
    0xe2, 0x00, 0xe4, 0xbe, 0x00, 0x00, 0x00, 0x00, 0x87, 0xb7,
    0x69, 0xbe, 0xc0, 0xf1, 0x57, 0xbd, 0xc0, 0x46, 0xbf, 0xbb,
    0xe8, 0xe0, 0x81, 0xbe, 0x20, 0x8e, 0x78, 0x3d, 0x6f, 0xbc,
    0x92, 0x3e, 0x5c, 0x40, 0x5d, 0xbe, 0x90, 0x92, 0x82, 0xbe,
    0xb0, 0xf5, 0xaa, 0xbe, 0x78, 0xd4, 0xce, 0xbd, 0x40, 0x57,
    0x10, 0x3d, 0x60, 0x71, 0x81, 0x3c, 0x80, 0xff, 0x10, 0x3b,
    0xe8, 0xfa, 0xa3, 0xbd, 0x40, 0x60, 0xc5, 0xbd, 0xb4, 0x7a,
    0x0c, 0xbe, 0xcb, 0xde, 0xff, 0xbe, 0xc4, 0xc7, 0x8e, 0xbe,
    0xa9, 0x95, 0xf9, 0x3e, 0x15, 0x09, 0x80, 0x3e, 0x9f, 0xb6,
    0x45, 0xbe, 0xe1, 0xeb, 0xdb, 0xbe, 0x07, 0x32, 0xc5, 0xbe,
    0xfb, 0x01, 0xfa, 0xbe, 0x46, 0x06, 0x51, 0xbe, 0x16, 0x58,
    0xd9, 0xbe, 0x52, 0xfd, 0x20, 0x3f, 0xe4, 0x7e, 0x9f, 0x3d,
    0x87, 0x46, 0x05, 0x3c, 0xf8, 0x84, 0x65, 0xbe, 0x8d, 0x62,
    0x6c, 0xbe, 0x3c, 0xfe, 0xb0, 0xbd, 0x76, 0xf9, 0x3d, 0x3c,
    0x07, 0x05, 0x8d, 0x3e, 0x52, 0xdb, 0x65, 0x3d, 0x81, 0x74,
    0xd1, 0xbe, 0x89, 0xb7, 0xe3, 0xbc, 0x80, 0xf4, 0x84, 0xbc,
    0xc4, 0x98, 0x95, 0xbe, 0x07, 0x09, 0x9c, 0x3d, 0x10, 0xe0,
    0xa4, 0xbe, 0x29, 0x6b, 0x5f, 0xbe, 0x59, 0xdb, 0xc9, 0xbf,
    0x3d, 0x7d, 0xb0, 0x3e, 0xf8, 0x16, 0x9e, 0x3e, 0xd8, 0x3e,
    0x8c, 0xbe, 0xf8, 0xde, 0x3f, 0xbf, 0x80, 0x7b, 0x02, 0x3c,
    0x8d, 0xe8, 0x44, 0x3e, 0xd2, 0x46, 0x0f, 0xbc, 0xa5, 0x2f,
    0x02, 0xbf, 0xec, 0x32, 0xec, 0xbd, 0x1f, 0xa0, 0x28, 0x3e,
    0xac, 0x9a, 0x83, 0xbe, 0x46, 0xdd, 0x70, 0x3e, 0x65, 0x4a,
    0xc7, 0x3e, 0x58, 0x67, 0x4d, 0x3d, 0x6a, 0xd8, 0x75, 0x3e,
    0xfd, 0x95, 0x71, 0xbf, 0x8a, 0x25, 0xa6, 0xbe, 0x91, 0xa7,
    0x0b, 0xbd, 0xe2, 0x28, 0xab, 0x3d, 0x08, 0x0b, 0x72, 0xbf,
    0x59, 0x80, 0xcf, 0xbe, 0x1e, 0xdf, 0x1d, 0x3e, 0xd8, 0x73,
    0x77, 0xbe, 0x16, 0x38, 0x2d, 0xbe, 0x87, 0xf0, 0xda, 0xbe,
    0xf5, 0x45, 0x80, 0xbe, 0xe4, 0xec, 0xe3, 0xbd, 0xd0, 0x1a,
    0x89, 0x3d, 0x02, 0xd2, 0xf6, 0x3e, 0x65, 0xad, 0xa6, 0x3e,
    0xae, 0xd2, 0xb4, 0xbe, 0x97, 0x87, 0xb4, 0x3f, 0xf1, 0x78,
    0xa8, 0x3e, 0xcc, 0x13, 0x8d, 0xbe, 0x0f, 0xee, 0xbb, 0x3e,
    0x2a, 0xf6, 0x39, 0x3f, 0xa9, 0x87, 0xd8, 0xbe, 0x95, 0x06,
    0xa5, 0x3e, 0xd0, 0xd1, 0x27, 0xbe, 0x48, 0x0a, 0x47, 0xbe,
    0xdb, 0x36, 0xa3, 0x3e, 0x16, 0xa2, 0x3d, 0x3e, 0xf8, 0x8c,
    0x11, 0x3d, 0x93, 0x45, 0xb1, 0x3e, 0x61, 0x4e, 0xc8, 0xbe,
    0x71, 0xf4, 0xdb, 0xbe, 0x1a, 0x42, 0x7a, 0x3e, 0x80, 0xec,
    0x00, 0xbe, 0x25, 0x3d, 0xa2, 0x3e, 0x50, 0x25, 0x82, 0xbc,
    0x12, 0x68, 0x01, 0xbe, 0x21, 0x9a, 0xab, 0x3e, 0x3b, 0x5b,
    0x99, 0x3e, 0xa4, 0x5f, 0x3e, 0xbe, 0x02, 0x3b, 0xb5, 0x3e,
    0x30, 0xdf, 0x03, 0xbf, 0x0d, 0xd6, 0xac, 0x3e, 0x39, 0x05,
    0xa8, 0x3e, 0xe1, 0xd9, 0xd1, 0x3e, 0x11, 0x71, 0xad, 0xbe,
    0xd3, 0xd6, 0xa9, 0x3e, 0x0c, 0x08, 0x0e, 0xbe, 0x40, 0xf5,
    0xd9, 0xbb, 0x88, 0x5b, 0xa9, 0xbf, 0x92, 0xf2, 0x0f, 0x3e,
    0x31, 0xef, 0xf7, 0x3b, 0xdd, 0xe7, 0xa8, 0x3c, 0xcc, 0xb1,
    0x34, 0xbf, 0xb9, 0x0a, 0xdb, 0xbe, 0x65, 0xd2, 0x23, 0x3e,
    0x85, 0x3c, 0xe9, 0xbd, 0x94, 0x28, 0xa1, 0x3e, 0x3d, 0xfe,
    0xb9, 0xbe, 0x4c, 0x9c, 0x6c, 0xbe, 0x18, 0xf8, 0x49, 0xbd,
    0x56, 0xdb, 0x2e, 0x3e, 0xe4, 0xb3, 0x96, 0xbe, 0x48, 0x44,
    0x8f, 0xbd, 0xac, 0x9f, 0x84, 0xbe, 0x85, 0x7a, 0x96, 0x3f,
    0xc8, 0xab, 0x3d, 0xbd, 0xd3, 0x97, 0xbc, 0x3e, 0x78, 0xed,
    0x69, 0x3c, 0x6e, 0xbd, 0x99, 0x3f, 0x50, 0x50, 0xc0, 0xbe,
    0x86, 0x93, 0xd1, 0xbe, 0x1d, 0x30, 0x07, 0xbe, 0x90, 0x37,
    0x86, 0x3e, 0xa0, 0x77, 0x80, 0xbe, 0xeb, 0x64, 0x17, 0xbe,
    0x80, 0xa5, 0xc0, 0xbb, 0x16, 0x17, 0x7b, 0x3e, 0x11, 0x4c,
    0x83, 0x3d, 0x4c, 0x42, 0x82, 0xbe, 0x92, 0x7d, 0x1d, 0x3e,
    0xd4, 0x7a, 0xc7, 0x3e, 0x6d, 0xb8, 0x82, 0x3e, 0x84, 0x13,
    0x2c, 0x3e, 0x9b, 0x76, 0x9e, 0xbe, 0x6d, 0x50, 0x08, 0x3e,
    0x72, 0xae, 0x1a, 0xbe, 0xd0, 0x95, 0xa5, 0x3e, 0xd0, 0x62,
    0xae, 0xbb, 0x08, 0x72, 0x0c, 0xbf, 0x08, 0xa3, 0x72, 0x3d,
    0x36, 0xbe, 0xf6, 0x3e, 0x20, 0x9e, 0xfb, 0x3c, 0x37, 0x6c,
    0x87, 0x3e, 0x83, 0x1c, 0x8f, 0xbe, 0x13, 0x17, 0x8f, 0xbe,
    0x30, 0xeb, 0xe3, 0x3c, 0x9d, 0x2b, 0xa3, 0xbf, 0xc0, 0x40,
    0xab, 0xbb, 0xdd, 0x62, 0x22, 0x3e, 0x2c, 0x8e, 0x82, 0xbd,
    0x4d, 0x6d, 0xb5, 0xbe, 0xe2, 0x4a, 0x91, 0xbe, 0xdd, 0x98,
    0x05, 0xbd, 0x9e, 0xe8, 0xa0, 0x3b, 0xe7, 0x3a, 0x83, 0x3e,
    0x50, 0x55, 0x34, 0xbd, 0x04, 0x26, 0x11, 0x3e, 0x90, 0x06,
    0xb7, 0x3c, 0x74, 0x44, 0x56, 0xbe, 0x76, 0xd8, 0x62, 0xbe,
    0xdc, 0x8c, 0x9d, 0x3d, 0x7a, 0x24, 0x6b, 0xbe, 0xc5, 0x49,
    0x0b, 0x3c, 0xe2, 0x3e, 0x2b, 0x3e, 0x84, 0x6c, 0x99, 0x3d,
    0x6c, 0x01, 0xa6, 0xbe, 0x4e, 0x93, 0xf4, 0xbd, 0x1a, 0xbf,
    0x59, 0x3e, 0x15, 0xd7, 0x08, 0xbe, 0xa2, 0xa6, 0xd8, 0x3d,
    0xe1, 0x47, 0xd4, 0xbd, 0xef, 0x47, 0x47, 0xbe, 0xd2, 0x6b,
    0xd2, 0x3e, 0x80, 0xc7, 0x78, 0xbc, 0xba, 0x0d, 0x30, 0x3e,
    0x16, 0x5f, 0x36, 0xbe, 0x44, 0xb5, 0x83, 0xbe, 0x4a, 0x20,
    0x63, 0x3e, 0x68, 0x1d, 0xfd, 0x3e, 0xff, 0x9c, 0xbb, 0x3e,
    0xc8, 0x00, 0x3f, 0xbe, 0x21, 0x7b, 0x97, 0xbe, 0x1a, 0x94,
    0x01, 0x3f, 0x49, 0x39, 0x9c, 0x3e, 0x00, 0x59, 0xd0, 0xbe,
    0xa0, 0x3c, 0x72, 0xbd, 0x62, 0xb0, 0x28, 0xbe, 0x3e, 0x82,
    0x1b, 0xbe, 0xe0, 0x8c, 0x74, 0x3d, 0x29, 0x65, 0xb8, 0x3e,
    0xc1, 0x02, 0xbe, 0x3e, 0x08, 0xd4, 0x71, 0xbd, 0x28, 0x1b,
    0x2d, 0xbd, 0xb9, 0x1c, 0xc1, 0x3e, 0xf8, 0xa1, 0x56, 0xbd,
    0x42, 0xab, 0x60, 0x3e, 0x76, 0xb3, 0x9c, 0xbe, 0x04, 0xa7,
    0xa9, 0x3d, 0x64, 0x8a, 0xe9, 0x3d, 0xf8, 0xd8, 0x29, 0x3d,
    0x9a, 0xbf, 0x61, 0x3e, 0x3c, 0x3d, 0x29, 0xbe, 0xff, 0xea,
    0x35, 0x3f, 0x7c, 0xcb, 0x8c, 0xbd, 0x99, 0xd5, 0xdf, 0xbe,
    0x45, 0x2c, 0xb2, 0x3e, 0x78, 0xb2, 0xb1, 0xbd, 0x6e, 0xd7,
    0x57, 0xbe, 0x8e, 0xd8, 0x2a, 0xbe, 0xd7, 0x80, 0xa4, 0xbe,
    0x75, 0xd5, 0xb3, 0x3f, 0x96, 0xe2, 0x1b, 0x3e, 0x88, 0x7a,
    0xbb, 0x3e, 0x2b, 0x9f, 0x4f, 0xbc, 0xa0, 0x3d, 0x6d, 0x3f,
    0xf8, 0x05, 0x22, 0xbd, 0x9e, 0x22, 0x29, 0x3e, 0x58, 0x95,
    0x41, 0xbe, 0xb7, 0x48, 0x25, 0x3e, 0xbb, 0x76, 0xa4, 0x3e,
    0xb9, 0x2b, 0xb0, 0x3e, 0x80, 0xb2, 0x90, 0xbd, 0x16, 0xe6,
    0xd1, 0xbe, 0x5d, 0x14, 0xa0, 0x3e, 0xd3, 0xdc, 0xc5, 0x3e,
    0x32, 0xf1, 0x7a, 0x3e, 0x9d, 0x4b, 0x30, 0x3f, 0xaf, 0x4e,
    0xb7, 0x3e, 0x59, 0x83, 0x66, 0x3e, 0xd6, 0xa3, 0x8a, 0xbe,
    0xa4, 0xb1, 0x4d, 0x3f, 0x02, 0x6e, 0x17, 0x3e, 0xf4, 0x4a,
    0x80, 0xbf, 0xa1, 0x94, 0x2c, 0xbf, 0x3d, 0xb0, 0xa8, 0xbe,
    0xd2, 0x5c, 0x72, 0x3e, 0x60, 0x2a, 0xa9, 0xbd, 0x5a, 0x29,
    0x89, 0xbe, 0x45, 0x41, 0x41, 0xbe, 0xb2, 0xd4, 0x80, 0x3d,
    0xeb, 0x53, 0xb2, 0x3e, 0xf8, 0xc1, 0x9b, 0xbd, 0xd7, 0x9d,
    0x9b, 0x3e, 0xca, 0xe5, 0xaf, 0xbe, 0x62, 0xae, 0x8b, 0xbe,
    0x3b, 0xd8, 0x2b, 0xbf, 0x2b, 0x81, 0x1d, 0x3e, 0xd2, 0x4a,
    0x21, 0xbe, 0x00, 0x00, 0x00, 0x00, 0x03, 0xdd, 0x3d, 0x3e,
    0xc9, 0x6b, 0xd2, 0x3e, 0x4e, 0xeb, 0x73, 0x3e, 0xff, 0xd8,
    0x92, 0xbe, 0x00, 0x00, 0x00, 0x00, 0x73, 0x3d, 0xd5, 0x3e,
    0xf1, 0x18, 0x9c, 0xbe, 0x94, 0xb9, 0x58, 0x3e, 0xbd, 0xd6,
    0xc3, 0x3e, 0xc4, 0x17, 0x8b, 0xbd, 0x6b, 0xa9, 0x40, 0x3e,
    0x00, 0x00, 0x00, 0x00, 0x93, 0x61, 0xa2, 0xbe, 0xf0, 0x30,
    0x82, 0xbe, 0x59, 0xc8, 0x50, 0x3e, 0x2e, 0xd4, 0x8e, 0x3e,
    0x2d, 0xae, 0x4a, 0xbf, 0xae, 0x65, 0x77, 0xbf, 0x3b, 0x72,
    0xeb, 0xbe, 0x95, 0xc5, 0x46, 0x3f, 0x4c, 0x81, 0x78,
    0x3e, 0x5c, 0x06, 0xd3, 0xbe, 0x63, 0xa1, 0x0a, 0x3f,
    0x69, 0x7e, 0x5a, 0xbf, 0x03, 0x1c, 0xd8, 0xbe, 0x93,
    0x23, 0x86, 0x3e, 0x82, 0x03, 0x30, 0xbf, 0x5e, 0xc6,
    0x8f, 0xbe, 0x81, 0xa0, 0x31, 0x3f, 0xf6, 0xb4, 0xcb,
    0x3e, 0x2a, 0xa3, 0x89, 0xbf, 0xd9, 0xde, 0x4a, 0xbe
  };

  return AI_HANDLE_PTR(s_sine_model_weights);

}

